FFF8 001F 0028 FFE7 FFD1 0011 003D 000C FFBD 0008 0009 FFDE 0038 0003 FFEB FFC0 FFF1 002E 0005 FFF8 FFD3 FFF0 003A 000D FFFF FFCD FFED 002F 0033 FFFE FFDE 0031 FFD3 0002 FFD4 0018 FFCE 004B 0000 FFF1 FFD8 FFCA FFEF 0012 000C FFF0 FFFB FFE7 FFE2 FFFE FFFC 0009 FFD7 FFFB 0015 001D FFF6 0021 FFE9 0015 FFBF FFD4 003A 001A FFCB 000C 001F FFEF FFEA 001A 0025 000B FFD6 001D FFCF 0011 0015 FFE9 0023 000C 0001 FFEB 0018 FFEC FFCC 0002 000F FFCE FFCC 003F 000B 001D FFCF 0034 FFC1 0037 FFFB FFFC 0003 0005 FFC8 0005 FFB4 FFC8 FFCB 0006 FFDB FFD2 0036 FFF6 FFFA 0046 0025 FFEA 002A 0037 0015 0004 000D 004A FFD3 FFFF 0037 0009 0009 FFDC 0008 001D FFE1 FFDA 0045 FFE0 FFD9 FFD0 FFE4 000C FFEB FFB4 FFDB 000D FFEC FFF9 001B FFE3 FFED FFEB 000B 0019 0009 0005 0029 0000 0017 0023 0011 FFED FFF7 0004 0014 000D FFF3 001F FFD1 FFF2 FFC5 FFD8 000D 0009 FFF5 0022 0000 FFDB FFC8 0005 FFEB FFE6 0023 0019 FFEF 0005 FFD9 002A FFF5 FFF9 FFE9 FFE7 0021 001C FFFB 003E 0007 FFE9 FFE4 0040 0009 FFF3 FFDA FFC2 0005 FFF3 FFEA FFE9 FFE6 0031 FFD1 000D FFCF 0004 0027 FFCF 000F 0031 FFFE FFE1 001F FFD7 FFE9 0008 0005 0008 0000 0014 0010 FFFB FFE8 0000 001B 0028 0007 FFEC FFDE 0014 FFFF 0011 0043 0008 001F 0018 003C 0038 0007 FFF8 000E 000B 000F FFF0 001C 000F 0035 FFEC FFFA 0061 FFEF 0001 0031 0034
FFE3 FFDA FFDD 0012 0010 FFD9 FFD6 FFFF 001C FFDB FFF7 FFEE 0032 FFD8 FFF3 FFF8 0019 FFED 000F FFF8 001C FFDA FFED FFE6 0007 0026 002A 002B 0036 003A 0011 FFE4 FFD6 0016 FFE1 0014 FFDB FFED 0001 0005 FFCC 0004 FFED FFEF 0008 FFE5 0020 001C FFFB 001B FFD8 0002 FFC9 0001 0027 FFF9 FFD8 003E 0010 000D FFEB 0024 FFEB 002B 002C FFB3 000E FFFB FFE2 0015 FFF0 FFEA FFD5 FFDD FFF4 0008 0002 0015 FFCA 003D FFF8 0031 0001 FFE6 FFEC FFFE FFF9 FFE0 0021 0019 0031 FFF7 FFF1 FFCC 000E FFE7 0009 0021 FFDB 0001 FFF6 0031 0013 FFCC FFDF 0037 FFF9 FFD9 FFF9 002A 0032 FFF0 FFEC FFF4 0008 0034 0003 FFF8 0020 FFF4 0020 0015 FFDD FFC9 FFCD 000B FFF0 FFDD FFEA 001B 002F 0018 0025 0028 FFD9 0017 002D FFEC 002B FFCB 0029 0022 FFD4 0006 0003 0035 FFEA 0018 002A 0011 0034 FFEE 0038 003F FFF4 003C 000D FFCD 003A FFFA FFCC 0036 0006 0021 0006 001D FFDA FFDB FFF7 FFC6 0002 FFDF 0033 FFD5 FFE7 FFC6 FFFA FFDA 002E FFEF FFF1 FFEA FFE1 0039 0030 001D FFEB FFE5 FFF1 FFF0 FFCF 0026 0014 0004 000D FFEC FFE2 0014 001B FFD5 FFE5 001F FFF3 000A FFE0 FFDE 0029 0021 0020 0017 0018 FFFE 0010 FFFE FFE8 0036 0016 FFE7 0001 0008 FFD8 FFF9 002C 000E FFE9 FFFA FFC7 0048 0009 FFCD 001E FFEA FFF3 FFFB 0028 FFC2 FFD9 0001 000C FFE2 FFC4 FFD8 003C FFC9 FFF6 FFFE 002F FFF0 FFE0 001C FFE4 FFF2 FFF0 0020 0015 FFD8
002B 0019 0038 0020 0028 0010 0043 0052 0015 FFC1 0003 0030 FFC3 0029 FFFA FFFD FFF7 FFAD FFF8 0006 FFE8 FFDE FFE7 FFF5 001A 0022 FFE6 0015 FFD7 0013 0014 0012 000E 0021 FFE1 0031 FFF4 0023 003C 0017 FFD3 FFBF 0013 FFD7 0009 FFB8 000A FFE0 002A FFFD 0010 0019 FFF8 0017 0009 FFC1 FFF7 0022 FFC1 FFE7 FFF3 FFF9 0015 000B FFBB 001F FFE6 000B 0031 001B FFEF 0003 FFFD 0017 0010 FFDA FFFB FFCC FFD5 0028 FFFA 0030 FFFF FFB6 FFE1 FFDF 0005 003D FFD4 FFD3 FFEB 0005 0010 FFE5 0012 0013 0037 FFBF FFD8 0021 FFF3 001C FFDF 000D 001F FFB0 000C FFF7 FFDE 002C FFE7 FFEB 0026 FFFB 0017 0010 0013 0025 0023 FFEB 000B 0011 FFF6 FFF2 0012 0006 0038 0011 FFD8 FFE1 FFD2 FFF7 FFDB 0012 FFFE FFF6 FFF1 002D 0019 0033 FFFD 003C FFF0 0046 FFDD FFF6 FFDD 0022 001E 000D FFEA 0010 0029 0013 0006 FFD8 002D 0022 0025 0013 FFBD FFEF FFBB FFE6 0016 FFDC FFEF FFFD FFF1 003C FFCB 0019 002B 0029 0022 FFEB FFD6 FFFD FFC1 FFBF FFEE 0028 FFDB FFD5 FFF3 FFDF 0029 0011 FFE4 0007 0002 0041 0014 002A 001A 0021 0037 FFD2 FFE8 000C 000D FFC5 000C 0008 FFF8 FFD4 001F FFDB 000B FFE0 0002 0018 0044 FFE4 0011 FFC4 FFFE 0024 FFFE FFE7 0018 FFBE 0026 0000 0005 FFFB 002B FFD4 0004 0010 0015 002D 0014 0038 FFD7 FFFE 0003 FFE7 001A 000F FFF7 FFF2 0019 FFF9 FFFD 0031 FFC0 002B FFD5 001C 004A 0003 FFCD 0009 0016 FFE4
0038 0015 002F 0010 000C 0021 001A FFD3 FFF1 0018 FFF8 0023 000C FFDA FFDA FFD5 FFE9 0018 001D FFE5 0002 FFD0 FFFF FFE2 0033 FFF2 003D FFFD FFDF FFF0 0007 0007 001D 0013 0025 FFDE FFEF 0015 FFD6 FFF1 0029 0031 FFEC 001A 000D 0001 FFF4 002A 001E FFE9 0010 001F 0017 FFF7 002C 0002 FFF0 0011 0016 0018 0045 0026 FFAF 000B 0034 FFE8 000D 0021 FFF4 001D 0024 004A 0018 FFEA 0015 FFD2 FFEC 001A 0010 FFB1 0037 0009 0009 0031 0006 0033 FFE3 000F 0018 FFF6 0007 FFE8 001F 001F 0036 FFD4 FFD0 0000 FFF8 0017 FFF0 FFFA 001B 002A 0015 000F FFE7 0011 001F 000C 0017 0019 0013 0023 0009 000B 0004 FFDC FFF7 FFDD FFE4 001B 003C 000E FFFA 0025 0007 FFDB 0033 0002 FFC4 0018 FFEE 0023 0026 FFE9 FFE2 002A FFEF 0043 0030 0005 FFEB FFDF FFFC 0006 0013 002B 0004 FFF3 FFFB 003E FFFA 0019 0038 0004 0010 FFDB FFCD FFDF 0014 FFC7 0018 002A FFF6 001E FFF1 0007 FFFF FFDD FFEC 0032 0021 0009 001F 0026 FFDA 000D FFCE 001A 0024 FFF1 0021 FFE0 FFD5 0023 0008 FFDD FFF7 FFC2 FFEF FFCD 0024 0019 0035 FFF9 003E 0024 0013 0015 001C 0029 FFFD FFDC 0024 FFE9 002B FFD1 FFEC 0000 001F 0005 FFFB 0000 FFF3 FFE8 FFFF 001F 0030 002C 0002 FFF6 FFD8 000B FFC8 FFD6 FFE9 FFCF FFEB FFDE 0025 0013 002A 000F 0002 000A 0019 FFE0 FFDB 000A 002D 0020 FFE9 FFFC 0005 0034 0016 0015 FFD4 0035 FFED 001A 0024 FFF4 0022 FFE5
0004 FFE6 FFC9 FFFF FFF3 FFE8 FFF7 0016 0025 0024 0000 0003 FFC6 0028 FFEB 0011 FFF0 FFF0 FFDD FFEF FFE3 0017 0022 0036 FFC6 001B FFE6 0004 001D 0022 0021 001B FFFE 001C FFF2 FFE1 001A 0001 0026 0014 0020 FFFD FFDC 0035 FFEB 000E FFD9 0003 FFF2 0005 000D FFBD 0033 001E FFF8 0006 FFFD 0011 0023 001E FFF8 FFD5 FFF6 FFF6 002F 002C 0019 FFF6 0009 FFEA 0019 FFD0 002B FFF0 000F 004B FFDD FFEE FFF0 0006 FFF9 FFD9 FFE0 0006 003A FFB7 0019 0015 FFEA FFDE FFF3 0023 002E 0013 FFF3 0010 000A 001E FFEC FFDA FFEC 000A 0026 FFE7 0017 FFFC 0032 FFF1 FFEA FFD8 000A FFEA FFDA 0016 FFBF FFDA 0016 0027 FFF2 0017 FFDD FFEA FFE2 0001 0004 000A FFED 0008 FFF3 001D 001A FFC1 003A 000C FFF9 FFDA 0005 0010 FFE5 FFFE 000B FFD2 0011 FFC8 FFEF FFFA 0013 FFEC FFE2 003E FFD6 FFF5 000A FFFB 001D FFE0 0008 FFED 0005 FFCE 001C 000C 0029 FFDC 0031 000C FFE5 0028 0043 002C 002A FFE1 0001 FFD8 FFD9 FFEF 002C 0015 FFF0 0018 0025 001D FFF7 0021 001D FFDB FFB9 FFFA FFD2 FFFB 003E FFED FFFE 0028 FFE9 FFFB FFE5 0002 FFD8 FFF9 003C 000B 0027 0002 FFF3 0001 FFFE 0019 FFB9 0018 001F FFFD FFFA 0010 001A 000F FFE4 FFC0 FFF7 FFE1 FFCE FFDF 0036 FFE4 0036 0017 001A 0008 FFDB 0002 FFD7 FFF1 0029 FFE2 FFE8 002C FFBB 0016 0031 FFE0 FFEF 0000 FFE2 0031 003D FFF4 000D FFCE 0012 000A FFC8 FFC9 0014 0038 000E FFED
FFDD FFFB FFE4 FFCB FFDE FFF5 FFDB 0018 0002 FFD0 FFEF 000C FFF3 FFD0 0007 FFE6 FFD9 FFFB 002C 001C FFFD 0006 FFEB 001F 0016 FFE4 FFEB FFF6 000C FFE4 0019 FFB8 001C FFE5 0035 FFC3 0024 FFF0 FFF3 0007 FFEC FFF8 0005 FFFD FFF4 001E 003B 0026 FFD9 FFE1 0026 FFFF FFF4 FFE1 FFAB FFE6 FFC8 FFF8 FFE9 FFF1 0034 0016 FFF7 FFE2 000E FFFD FFC5 FFB9 FFDD 0008 003D 0013 FFD1 FFFE 0032 FFE4 003C FFED FFDF 0009 0049 FFE3 FFDD FFFE 0002 000A FFC1 FFE8 FFEA 0049 FFEB FFFC 0029 FFDF 000A FFDE FFDE 0017 0032 0005 001F FFB7 FFF2 001E 000E FFE0 003E FFF6 002C FFF9 FFD9 FFFB FFF7 FFCF 0014 FFE8 FFC1 0008 FFE0 FFD4 FFFA 0006 0038 FFED 002E FFE6 0019 FFEB 0023 FFEF FFC9 0008 002F FFED FFCF 001B 000D 0024 FFDF FFEB FFBB 0019 000F 0017 0019 FFD8 0023 FFE2 FFDF 001D 000C 0035 FFD0 0001 FFCB FFF7 FFD4 FFED 001B 0020 0005 0003 0010 FFE9 FFFA 000D FFF6 FFE9 002D 0002 FFF5 0006 FFE7 FFFC 0002 0025 FFE3 002C 0000 001A 002D FFCD FFF9 0010 FFFC FFEA 0001 0034 0046 FFF6 000D FFFD FFD3 FFD2 0012 002A FFE9 001A 0025 002E FFCA 0004 FFD0 001C 0030 0010 001D 0004 001B 000E FFE4 FFB6 FFF1 FFFE 0017 FFEC FFE0 FFFD FFC2 FFEE 000A 001C FFD9 004D FFDB FFCB FFEB 001E FFF5 0011 FFE0 FFD6 FFCA FFD4 0006 000A 0020 FFFD FFE2 FFD1 0000 000C FFF9 FFFB 0001 FFE1 FFF2 FFDE FFE7 FFED 000D 0004 FFF8 FFDB FFDB FFF0
FFD5 FFCF FFCA FFC8 FFC4 0014 FFFD FFD9 0030 001F 002B 000E 0003 FFFA FFCA 0012 FFDC 0031 0028 0027 0008 0025 003C 0030 FFE5 FFF3 FFDA FFDE FFEF 0022 0009 0019 002B FFF3 FFE0 0018 FFCC FFD8 FFFF FFD7 FFCE 0032 FFF1 FFFB 003D FFDE 000F 0007 002F 0006 FFB9 FFE4 0013 FFBE FFD7 0035 000B 002B 0038 0018 001C FFF6 001E 0036 FFCE 0035 0012 FFF1 FFE2 0003 001F 0008 0008 002A 0003 FFE3 FFE1 0032 0027 FFFF FFF7 FFCB 0040 000E 0024 000C FFFA FFFA FFE5 0007 FFE3 FFEA FFDF 0018 001D FFFD 0019 FFFD 000B FFE1 FFC8 FFED FFC3 0019 FFF3 FFF5 FFC1 0021 0009 FFB7 FFF5 FFE2 FFDF FFEC 0007 FFD4 000B 001A 002C 001F 0011 0023 FFE8 FFEE FFD5 003D FFEF 0007 FFF4 FFCF 0010 0030 0028 002C FFE6 0003 FFDC FFDC 0026 FFC6 FFBC FFFF 003B 001E FFD7 0014 FFD6 FFC0 FFD2 FFE5 0012 FFE7 FFF7 0026 FFEC FFF9 FFD4 0038 FFFE FFD3 0023 FFED FFE9 0024 0026 FFE6 0006 FFB5 FFCB 0023 0015 002F FFDC FFE3 FFF8 FFE0 FFEA FFC3 FFF3 0003 FFDF FFEF FFD9 001A 0037 FFEE 0004 002F 000A 0013 0017 FFEC 000C FFF9 FFE9 FFCF FFE1 FFFD FFE9 001E FFE6 FFDF FFF7 002F 0015 0030 FFFA FFE9 0007 FFED 0004 FFED 0023 FFCC FFDC 002E 0014 0001 FFC5 FFE8 002D 0018 000F 000E FFF3 0010 0029 0024 003F FFD4 FFE2 0020 FFFA FFDF FFFE FFDA FFC1 FFF3 0002 FFEA FFF5 FFF2 FFE9 FFD0 FFE4 FFBF FFF4 0052 002D FFE4 FFED 0002 002F 002F 0027 FFFB
FFE9 FFF9 001F 0014 0009 0030 FFCB FFE9 FFDF FFF5 FFBD FFD0 FFEE 001C FFE6 001B FFDE FFF1 FFE1 0017 FFF6 001B FFDC FFC2 0014 FFF0 001D 0027 0014 FFD7 0009 FFBE FFD3 0035 FFEC FFE7 FFEB FFF3 FFE3 001C 0048 FFF7 0008 FFCA 0016 FFF0 FFEB FFD0 FFF3 0028 001A 002E FFFC 001F 0003 FFF1 0006 FFB4 FFDA FFE3 FFD8 0024 FFF1 FFF8 0037 FFD9 0011 0010 0033 FFE3 FFE9 FFCA FFFE FFC4 FFCA FFFD FFE5 0014 0011 0013 FFED 001B FFE0 FFD6 FFFA 000F 002A 002F 0034 FFCD FFD6 FFDD 000B FFF7 FFFF 0019 FFE6 0028 0004 FFC2 0009 FFEE 0041 0005 0008 003D 0031 0028 002E 003D FFFF FFFC 001C FFE0 0019 FFFF FFCC FFCD FFDB 002E FFEF FFF6 FFE1 0014 000B FFF1 FFF7 001E 0035 0050 FFFE 0036 0003 FFE2 0024 FFC5 000B FFE2 FFEB FFFB FFFB FFE3 0020 FFED 0005 FFF2 FFEF 0012 FFF4 0031 0009 FFFF FFF8 FFD3 0008 FFF4 FFFA 0017 FFF1 FFEF 002E 0019 FFDC 0037 0026 FFCA 0007 0020 FFBD FFED 000B FFFB 0038 0016 FFE0 0014 000C FFE4 000A FFD9 FFD5 FFF1 0033 FFFB FFDE FFF9 000A FFEE FFE7 0029 FFE4 FFFD FFE0 FFE6 0021 0001 0011 FFED FFCD FFE5 FFE7 0029 FFFC FFC4 001A FFE9 FFE3 0007 FFE0 FFEF 0008 001C 0024 0039 FFEB 0012 0002 0030 FFE8 FFDE 0000 001B FFDF 0012 0015 0034 FFCD 000D FFF0 002C FFF5 0019 FFCB 0034 FFBF FFBD 001D 0037 FFFD FFFD FFE7 FFD3 0035 FFF0 FFEC 000B 0025 FFE7 001F FFF8 0004 FFD8 0011 FFCD 000C 0021
FFFF 002D FFE3 001D 0007 FFE0 000D FFE4 0015 001A 002A 002B FFF7 FFEF 0042 0023 0017 0016 FFD7 0015 FFD0 0018 002D FFFF 0001 0010 FFEA FFD7 FFEA FFDC 0004 0028 0004 FFFC 0017 0017 FFF3 FFD3 0024 FFFD 0036 000C 003A 002B 0029 002F FFC6 002D FFED 0002 000F 000F FFF7 0008 0003 FFCF 0036 FFE4 0009 0007 0005 001C 0021 FFD0 FFC0 FFF1 0003 003E 0016 000E FFF6 0013 001B 0014 0004 0028 002E FFD9 0019 FFEF FFE3 FFF2 0026 003B FFFF 000C 000C FFE4 0019 FFED 0015 FFEE FFE7 000F FFFC FFD7 000F FFC7 002A 0056 0020 001A 000C 0020 0014 FFFF FFE7 FFE4 FFDA 0005 FFE8 FFDD FFE5 000B 000E 0020 001C FFDE 000A FFDC 000D FFE6 FFE6 0023 001F FFD9 002D FFC9 000B 0027 FFFA FFDB 0003 FFE9 0008 003B 0025 FFE3 FFF4 0005 0013 0022 0012 FFFC FFD2 FFE8 FFEC FFD4 FFF3 FFB8 FFEA FFE7 0021 FFE5 FFDC 0049 0009 0019 0006 0029 FFFE FFF2 0026 FFEC FFA5 0035 001F FFFA FFF1 0003 000A 0006 0013 FFE3 0018 0018 FFFF 000C 0011 0024 0017 0009 FFDA FFBA FFE6 FFF6 0021 FFD6 FFF9 0021 FFC6 FFFB 002C FFE6 FFB1 001B 0035 000C 001A 002A 0023 0005 003C 0006 FFE0 0030 FFDF FFE6 0014 FFDE FFD0 0019 FFB6 0028 FFDE 000A 0020 FFD1 0028 002E 001A 0021 0001 FFD5 0019 FFDC 0003 FFDE 0032 0012 FFE9 FFFA 0001 FFD6 FFF0 FFF7 FFEF FFF6 0009 001B 0009 0023 FFF1 0021 FFCC FFFD FFCC 0014 000B FFF0 FFFD FFEC FFF8 FFFE FFD3 FFF7
0011 000E FFFD 000E 0025 FFD5 000E FFEF FFE4 FFFD FFFA FFE9 FFF8 FFF3 003A 0022 003C 0013 FFF6 FFCA 0049 0017 FFE9 FFF7 0002 FFE6 FFCB 000E 0017 FFEB FFBD FFFD 0009 FFA7 FFF8 0019 0055 FFD9 FFFE FFC9 000F 001B 0016 000C FFB3 001F FFE0 FFDF 0013 FFF1 FFDD FFF6 FFF4 FFE7 0006 001E 001E FFE9 001E FFCE FFE8 FFB3 FFEE 0013 0011 0002 FFD9 000B FFE6 FFCB FFC0 0012 002B 0023 000A FFFE FFF5 0011 0006 000A FFE6 0023 FFFC 000D FFE1 001A 001C FFF8 FFF7 0003 0027 0052 FFF1 FFF2 FFC7 0010 FFE9 0001 000D FFE4 003D 0004 000B 000B FFDC 0006 FFE9 0002 FFE9 FFDD FFEB FFEB FFE8 0035 FFCD FFFE 0028 001C FFDC 0003 0034 FFD8 FFE2 FFFF FFE7 FFD8 FFD6 002A FFE0 FFF0 0001 FFD8 FFE7 FFFC 0031 0003 FFE9 000A 001B 0005 0015 FFD1 FFD9 000D 0036 0019 002F 0005 0029 FFF4 FFE6 FFF2 FFE3 FFE8 FFFE FFDE FFE7 FFD8 FFF7 FFFF FFDF 000C 002A FFD6 0020 000C 0045 0009 FFFF 0007 FFF3 FFD3 FFB3 0033 FFE6 FFFC 0027 FFF6 0014 0023 0004 FFFF 0009 001C 0028 003D FFDC FFFE 002C FFF5 001C 0013 0006 FFCD 0011 FFE1 FFCF FFF7 FFFA FFBD FFFC FFEA FFFD FFF9 FFF2 0005 FFE1 FFFD 000C 003C FFD5 001D 0028 FFFE 0016 001D 002A 001C 001C 000C 000C FFE6 FFFA FFD0 0023 001E 000A FFE8 0001 0022 0024 FFDF 000B 0012 0013 003C 001C FFE9 FFD9 0013 0028 000A FFE3 0013 003E 000E 001D FFFC 000D FFCF FFF9 FFF1 FFF1 FFF4 FFD8 002D
